TRT-6001-EntropyCalibration2
0: 3f800000
84: 42e95367
85: 3ea32dd7
86: 3fa2ecf9
87: 410fe346
88: 3f0494e1
89: 3f8c593d
90: 418a52c6
91: 3fae43ff
92: 3fa9a0c8
93: 4104a01e
94: 3f2a2984
95: 3f21fd65
96: 42ad04b4
97: 3fb26d9e
98: 3fa3f999
99: 417b9c32
100: 3f7a32f3
101: 3f848770
102: 42a0037d
103: 3f6f0278
104: 3f81619a
105: 42325879
106: 3faf71d9
107: 3f9fd949
108: 4337a44c
109: 3fa5ab45
110: 3f9c23fd
111: 4215c952
112: 3fcd595c
113: 3fb122c1
114: 4353e850
115: 3fb822d2
116: 3fb822d2
117: 42b9cb86
118: 3f97ec46
119: 3f9be5dd
120: 43235c14
121: 3f97250d
122: 3f8eeb4f
123: 423eac20
124: 40090b2f
125: 3fb8e44f
126: 4390973c
127: 3fa3e85a
128: 3fa8d1f4
129: 41fe0045
130: 3f845921
131: 3f8560ea
132: 435761ff
133: 3fa40b29
134: 3fb19b1a
135: 4287b23f
136: 3f5d39ca
137: 3f779129
138: 436db4af
139: 3f57d60b
140: 3f57d60b
141: 41c9cc1a
142: 3f7e7870
143: 3f84d08d
144: 43281195
145: 3f8c71d0
146: 3f98be3a
147: 424501a1
148: 3f87feff
149: 3f35428e
150: 439e915c
151: 3fa9c1d4
152: 3fbabdf3
153: 428bb56d
154: 3f09ad85
155: 3f09ad85
156: 438952e1
157: 4034663f
158: 3fc079f2
159: 4185db74
160: 3f558cb0
161: 3f4e023e
162: 43996825
163: 40239063
164: 402eda8a
pooling_replaced_output: 402eda8a
fc_replaced_output: 4494305c
topk_layer_output_value: 44c98015
topk_layer_output_index: 40feb973
