TRT-5102-EntropyCalibration2
input_tensor:0: 3f955020
resnet_model/conv2d/Conv2D:0: 40cd9371
resnet_model/batch_normalization/FusedBatchNorm:0: 3df77b29
resnet_model/Relu:0: 3df73131
(Unnamed Layer* 3) [Padding]_output: 3df73131
resnet_model/max_pooling2d/MaxPool:0: 3df73131
Conv__246:0: 3e05e01d
Conv__232:0: 3debcf2a
resnet_model/Relu_1:0: 3dac4992
Conv__234:0: 3d9a701f
resnet_model/Relu_2:0: 3d9a22de
Conv__236:0: 3d7371a4
resnet_model/add:0: 3dffb2d9
resnet_model/Relu_3:0: 3dad2a01
Conv__248:0: 3dc3aaec
resnet_model/Relu_4:0: 3dad7c24
Conv__250:0: 3dc36219
resnet_model/Relu_5:0: 3dae7c13
Conv__252:0: 3d79ec39
resnet_model/add_1:0: 3dd02978
resnet_model/Relu_6:0: 3d894ed5
Conv__262:0: 3d9c38bb
resnet_model/Relu_7:0: 3d8965cc
Conv__264:0: 3da64cfd
resnet_model/Relu_8:0: 3d8bc5ad
Conv__266:0: 3d7579f2
resnet_model/add_2:0: 3da2e18a
resnet_model/Relu_9:0: 3d9e2a94
Conv__290:0: 3dccfbca
Conv__276:0: 3dd35486
resnet_model/Relu_10:0: 3da6d814
Conv__278:0: 3db577e0
resnet_model/Relu_11:0: 3db577e0
Conv__280:0: 3dd8ab97
resnet_model/add_3:0: 3e0c5ad5
resnet_model/Relu_12:0: 3e1028db
Conv__292:0: 3d62a2c8
resnet_model/Relu_13:0: 3d7c7ce9
Conv__294:0: 3d8ab7d9
resnet_model/Relu_14:0: 3d5cbb11
Conv__296:0: 3d998e13
resnet_model/add_4:0: 3dd9f80c
resnet_model/Relu_15:0: 3de3e1e5
Conv__306:0: 3d895392
resnet_model/Relu_16:0: 3d8398ac
Conv__308:0: 3db4a6d6
resnet_model/Relu_17:0: 3d9283f8
Conv__310:0: 3d8a8b6a
resnet_model/add_5:0: 3dc541e0
resnet_model/Relu_18:0: 3dc541e0
Conv__320:0: 3d86dae1
resnet_model/Relu_19:0: 3d874a38
Conv__322:0: 3da3647e
resnet_model/Relu_20:0: 3d8e0f82
Conv__324:0: 3d61c893
resnet_model/add_6:0: 3dcfe828
resnet_model/Relu_21:0: 3dcfe828
Conv__348:0: 3da44bba
Conv__334:0: 3db2d77b
resnet_model/Relu_22:0: 3d9f169b
Conv__336:0: 3da89b52
resnet_model/Relu_23:0: 3da89b52
Conv__338:0: 3dd336f2
resnet_model/add_7:0: 3e08245d
resnet_model/Relu_24:0: 3e077e4d
Conv__350:0: 3d7b0db5
resnet_model/Relu_25:0: 3d814354
Conv__352:0: 3d95142a
resnet_model/Relu_26:0: 3d4d5c8b
Conv__354:0: 3d9abfb2
resnet_model/add_8:0: 3dccebb2
resnet_model/Relu_27:0: 3df80c47
Conv__364:0: 3d76db43
resnet_model/Relu_28:0: 3d76eb0d
Conv__366:0: 3d8a7231
resnet_model/Relu_29:0: 3d771556
Conv__368:0: 3d6874c4
resnet_model/add_9:0: 3ddb7d94
resnet_model/Relu_30:0: 3ddb7d94
Conv__378:0: 3d774362
resnet_model/Relu_31:0: 3d5e11e2
Conv__380:0: 3d857313
resnet_model/Relu_32:0: 3d92fee4
Conv__382:0: 3d879c2e
resnet_model/add_10:0: 3dce2f09
resnet_model/Relu_33:0: 3de5141e
Conv__392:0: 3d6b4f4d
resnet_model/Relu_34:0: 3d8bad5d
Conv__394:0: 3d739c34
resnet_model/Relu_35:0: 3d4f9def
Conv__396:0: 3d8afa01
resnet_model/add_11:0: 3db9c75c
resnet_model/Relu_36:0: 3db9c75c
Conv__406:0: 3d7033de
resnet_model/Relu_37:0: 3d632813
Conv__408:0: 3d8b262a
resnet_model/Relu_38:0: 3d80da5b
Conv__410:0: 3d8a9d2c
resnet_model/add_12:0: 3dd6efe4
resnet_model/Relu_39:0: 3dc85c7c
Conv__434:0: 3df4f17d
Conv__420:0: 3d99e8f3
resnet_model/Relu_40:0: 3d903aa0
Conv__422:0: 3d867782
resnet_model/Relu_41:0: 3d5bb035
Conv__424:0: 3e2adb47
resnet_model/add_13:0: 3e6b9d90
resnet_model/Relu_42:0: 3e6d7490
Conv__436:0: 3d801b01
resnet_model/Relu_43:0: 3d3b55ff
Conv__438:0: 3d8f59f3
resnet_model/Relu_44:0: 3d196cd8
Conv__440:0: 3dcd0805
resnet_model/add_14:0: 3e4d751c
resnet_model/Relu_45:0: 3e6a44ff
Conv__450:0: 3dbf9e8c
resnet_model/Relu_46:0: 3d9c5b17
Conv__452:0: 3d96a31f
resnet_model/Relu_47:0: 3d82672c
Conv__454:0: 3e1bf70e
resnet_model/add_15:0: 3e80ceab
resnet_model/Relu_48:0: 3ec0e593
resnet_model/Mean:0: 3d71561c
resnet_model/Squeeze:0: 3d71561c
(Unnamed Layer* 123) [Shuffle]_output: 3d71561c
(Unnamed Layer* 124) [Fully Connected]_output: 3e612199
resnet_model/dense/MatMul:0: 3e612199
(Unnamed Layer* 126) [Shuffle]_output: 3e612199
(Unnamed Layer* 127) [Scale]_output: 3e3b7f7b
resnet_model/dense/BiasAdd:0: 3e3b7f7b
softmax_tensor:0: 3ae00554
