TRT-6001-EntropyCalibration2
Input: 3c010204
FeatureExtractor/MobilenetV1/MobilenetV1/Conv2d_0/BatchNorm/batchnorm/mul_1: 3e15c383
FeatureExtractor/MobilenetV1/MobilenetV1/Conv2d_0/BatchNorm/batchnorm/add_1: 3d2e8c64
FeatureExtractor/MobilenetV1/MobilenetV1/Conv2d_0/Relu6: 3d418306
FeatureExtractor/MobilenetV1/MobilenetV1/Conv2d_1_depthwise/depthwise: 3e2eb020
FeatureExtractor/MobilenetV1/MobilenetV1/Conv2d_1_depthwise/BatchNorm/batchnorm/mul_1: 3eb42bbb
FeatureExtractor/MobilenetV1/MobilenetV1/Conv2d_1_depthwise/BatchNorm/batchnorm/add_1: 3db66723
FeatureExtractor/MobilenetV1/MobilenetV1/Conv2d_1_depthwise/Relu6: 3d418306
FeatureExtractor/MobilenetV1/MobilenetV1/Conv2d_1_pointwise/BatchNorm/batchnorm/mul_1: 3f055b63
FeatureExtractor/MobilenetV1/MobilenetV1/Conv2d_1_pointwise/BatchNorm/batchnorm/add_1: 3e6281fb
FeatureExtractor/MobilenetV1/MobilenetV1/Conv2d_1_pointwise/Relu6: 3d418306
FeatureExtractor/MobilenetV1/MobilenetV1/Conv2d_2_depthwise/depthwise: 3db9a0e2
FeatureExtractor/MobilenetV1/MobilenetV1/Conv2d_2_depthwise/BatchNorm/batchnorm/mul_1: 3e140b71
FeatureExtractor/MobilenetV1/MobilenetV1/Conv2d_2_depthwise/BatchNorm/batchnorm/add_1: 3d408a41
FeatureExtractor/MobilenetV1/MobilenetV1/Conv2d_2_depthwise/Relu6: 3d418306
FeatureExtractor/MobilenetV1/MobilenetV1/Conv2d_2_pointwise/BatchNorm/batchnorm/mul_1: 3e67ea28
FeatureExtractor/MobilenetV1/MobilenetV1/Conv2d_2_pointwise/BatchNorm/batchnorm/add_1: 3db69212
FeatureExtractor/MobilenetV1/MobilenetV1/Conv2d_2_pointwise/Relu6: 3d418306
FeatureExtractor/MobilenetV1/MobilenetV1/Conv2d_3_depthwise/depthwise: 3db08eaa
FeatureExtractor/MobilenetV1/MobilenetV1/Conv2d_3_depthwise/BatchNorm/batchnorm/mul_1: 3e4533fa
FeatureExtractor/MobilenetV1/MobilenetV1/Conv2d_3_depthwise/BatchNorm/batchnorm/add_1: 3e198c1a
FeatureExtractor/MobilenetV1/MobilenetV1/Conv2d_3_depthwise/Relu6: 3d418306
FeatureExtractor/MobilenetV1/MobilenetV1/Conv2d_3_pointwise/BatchNorm/batchnorm/mul_1: 3e53bf8a
FeatureExtractor/MobilenetV1/MobilenetV1/Conv2d_3_pointwise/BatchNorm/batchnorm/add_1: 3e2e53b5
FeatureExtractor/MobilenetV1/MobilenetV1/Conv2d_3_pointwise/Relu6: 3d418306
FeatureExtractor/MobilenetV1/MobilenetV1/Conv2d_4_depthwise/depthwise: 3dbe2d9d
FeatureExtractor/MobilenetV1/MobilenetV1/Conv2d_4_depthwise/BatchNorm/batchnorm/mul_1: 3dc566f5
FeatureExtractor/MobilenetV1/MobilenetV1/Conv2d_4_depthwise/BatchNorm/batchnorm/add_1: 3d42baa5
FeatureExtractor/MobilenetV1/MobilenetV1/Conv2d_4_depthwise/Relu6: 3d418306
FeatureExtractor/MobilenetV1/MobilenetV1/Conv2d_4_pointwise/BatchNorm/batchnorm/mul_1: 3e3e27be
FeatureExtractor/MobilenetV1/MobilenetV1/Conv2d_4_pointwise/BatchNorm/batchnorm/add_1: 3e03ac79
FeatureExtractor/MobilenetV1/MobilenetV1/Conv2d_4_pointwise/Relu6: 3d418306
FeatureExtractor/MobilenetV1/MobilenetV1/Conv2d_5_depthwise/depthwise: 3d9213cb
FeatureExtractor/MobilenetV1/MobilenetV1/Conv2d_5_depthwise/BatchNorm/batchnorm/mul_1: 3dc1a1fc
FeatureExtractor/MobilenetV1/MobilenetV1/Conv2d_5_depthwise/BatchNorm/batchnorm/add_1: 3da3d591
FeatureExtractor/MobilenetV1/MobilenetV1/Conv2d_5_depthwise/Relu6: 3d418306
FeatureExtractor/MobilenetV1/MobilenetV1/Conv2d_5_pointwise/BatchNorm/batchnorm/mul_1: 3e17349f
FeatureExtractor/MobilenetV1/MobilenetV1/Conv2d_5_pointwise/BatchNorm/batchnorm/add_1: 3ded5fb3
FeatureExtractor/MobilenetV1/MobilenetV1/Conv2d_5_pointwise/Relu6: 3d418306
FeatureExtractor/MobilenetV1/MobilenetV1/Conv2d_6_depthwise/depthwise: 3d970565
FeatureExtractor/MobilenetV1/MobilenetV1/Conv2d_6_depthwise/BatchNorm/batchnorm/mul_1: 3e22ab19
FeatureExtractor/MobilenetV1/MobilenetV1/Conv2d_6_depthwise/BatchNorm/batchnorm/add_1: 3d439ca7
FeatureExtractor/MobilenetV1/MobilenetV1/Conv2d_6_depthwise/Relu6: 3d418306
FeatureExtractor/MobilenetV1/MobilenetV1/Conv2d_6_pointwise/BatchNorm/batchnorm/mul_1: 3de5225b
FeatureExtractor/MobilenetV1/MobilenetV1/Conv2d_6_pointwise/BatchNorm/batchnorm/add_1: 3dbc6abd
FeatureExtractor/MobilenetV1/MobilenetV1/Conv2d_6_pointwise/Relu6: 3d418306
FeatureExtractor/MobilenetV1/MobilenetV1/Conv2d_7_depthwise/depthwise: 3d52bc4f
FeatureExtractor/MobilenetV1/MobilenetV1/Conv2d_7_depthwise/BatchNorm/batchnorm/mul_1: 3e0e39a3
FeatureExtractor/MobilenetV1/MobilenetV1/Conv2d_7_depthwise/BatchNorm/batchnorm/add_1: 3e316d0f
FeatureExtractor/MobilenetV1/MobilenetV1/Conv2d_7_depthwise/Relu6: 3d418306
FeatureExtractor/MobilenetV1/MobilenetV1/Conv2d_7_pointwise/BatchNorm/batchnorm/mul_1: 3dd67107
FeatureExtractor/MobilenetV1/MobilenetV1/Conv2d_7_pointwise/BatchNorm/batchnorm/add_1: 3dbe9069
FeatureExtractor/MobilenetV1/MobilenetV1/Conv2d_7_pointwise/Relu6: 3d418306
FeatureExtractor/MobilenetV1/MobilenetV1/Conv2d_8_depthwise/depthwise: 3d4ad6be
FeatureExtractor/MobilenetV1/MobilenetV1/Conv2d_8_depthwise/BatchNorm/batchnorm/mul_1: 3e45d70e
FeatureExtractor/MobilenetV1/MobilenetV1/Conv2d_8_depthwise/BatchNorm/batchnorm/add_1: 3e2d60f4
FeatureExtractor/MobilenetV1/MobilenetV1/Conv2d_8_depthwise/Relu6: 3d418306
FeatureExtractor/MobilenetV1/MobilenetV1/Conv2d_8_pointwise/BatchNorm/batchnorm/mul_1: 3dd58e1d
FeatureExtractor/MobilenetV1/MobilenetV1/Conv2d_8_pointwise/BatchNorm/batchnorm/add_1: 3daa355d
FeatureExtractor/MobilenetV1/MobilenetV1/Conv2d_8_pointwise/Relu6: 3d418306
FeatureExtractor/MobilenetV1/MobilenetV1/Conv2d_9_depthwise/depthwise: 3d1d8855
FeatureExtractor/MobilenetV1/MobilenetV1/Conv2d_9_depthwise/BatchNorm/batchnorm/mul_1: 3e00d97e
FeatureExtractor/MobilenetV1/MobilenetV1/Conv2d_9_depthwise/BatchNorm/batchnorm/add_1: 3dd1b50f
FeatureExtractor/MobilenetV1/MobilenetV1/Conv2d_9_depthwise/Relu6: 3d418306
FeatureExtractor/MobilenetV1/MobilenetV1/Conv2d_9_pointwise/BatchNorm/batchnorm/mul_1: 3e41193a
FeatureExtractor/MobilenetV1/MobilenetV1/Conv2d_9_pointwise/BatchNorm/batchnorm/add_1: 3e126edf
FeatureExtractor/MobilenetV1/MobilenetV1/Conv2d_9_pointwise/Relu6: 3d418306
FeatureExtractor/MobilenetV1/MobilenetV1/Conv2d_10_depthwise/depthwise: 3d30125c
FeatureExtractor/MobilenetV1/MobilenetV1/Conv2d_10_depthwise/BatchNorm/batchnorm/mul_1: 3df9c163
FeatureExtractor/MobilenetV1/MobilenetV1/Conv2d_10_depthwise/BatchNorm/batchnorm/add_1: 3d2004e7
FeatureExtractor/MobilenetV1/MobilenetV1/Conv2d_10_depthwise/Relu6: 3d418306
FeatureExtractor/MobilenetV1/MobilenetV1/Conv2d_10_pointwise/BatchNorm/batchnorm/mul_1: 3e1060a9
FeatureExtractor/MobilenetV1/MobilenetV1/Conv2d_10_pointwise/BatchNorm/batchnorm/add_1: 3dbc0076
FeatureExtractor/MobilenetV1/MobilenetV1/Conv2d_10_pointwise/Relu6: 3d418306
FeatureExtractor/MobilenetV1/MobilenetV1/Conv2d_11_depthwise/depthwise: 3d1161e6
FeatureExtractor/MobilenetV1/MobilenetV1/Conv2d_11_depthwise/BatchNorm/batchnorm/mul_1: 3dfbe18e
FeatureExtractor/MobilenetV1/MobilenetV1/Conv2d_11_depthwise/BatchNorm/batchnorm/add_1: 3dbe40a1
FeatureExtractor/MobilenetV1/MobilenetV1/Conv2d_11_depthwise/Relu6: 3d418306
FeatureExtractor/MobilenetV1/MobilenetV1/Conv2d_11_pointwise/BatchNorm/batchnorm/mul_1: 3e744efa
FeatureExtractor/MobilenetV1/MobilenetV1/Conv2d_11_pointwise/BatchNorm/batchnorm/add_1: 3e44c4fc
FeatureExtractor/MobilenetV1/MobilenetV1/Conv2d_11_pointwise/Relu6: 3d418306
BoxPredictor_0/BoxEncodingPredictor/Conv2D: 3e02489b
BoxPredictor_0/BoxEncodingPredictor/BiasAdd: 3e0431fc
FeatureExtractor/MobilenetV1/MobilenetV1/Conv2d_12_depthwise/depthwise: 3cf38e60
FeatureExtractor/MobilenetV1/MobilenetV1/Conv2d_12_depthwise/BatchNorm/batchnorm/mul_1: 3dd99593
FeatureExtractor/MobilenetV1/MobilenetV1/Conv2d_12_depthwise/BatchNorm/batchnorm/add_1: 3d3c41d0
FeatureExtractor/MobilenetV1/MobilenetV1/Conv2d_12_depthwise/Relu6: 3d418306
FeatureExtractor/MobilenetV1/MobilenetV1/Conv2d_12_pointwise/BatchNorm/batchnorm/mul_1: 3e5e732c
FeatureExtractor/MobilenetV1/MobilenetV1/Conv2d_12_pointwise/BatchNorm/batchnorm/add_1: 3db801ce
FeatureExtractor/MobilenetV1/MobilenetV1/Conv2d_12_pointwise/Relu6: 3d418306
FeatureExtractor/MobilenetV1/MobilenetV1/Conv2d_13_depthwise/depthwise: 3cfaf68b
FeatureExtractor/MobilenetV1/MobilenetV1/Conv2d_13_depthwise/BatchNorm/batchnorm/mul_1: 3e206189
FeatureExtractor/MobilenetV1/MobilenetV1/Conv2d_13_depthwise/BatchNorm/batchnorm/add_1: 3db6e12c
FeatureExtractor/MobilenetV1/MobilenetV1/Conv2d_13_depthwise/Relu6: 3d418306
FeatureExtractor/MobilenetV1/MobilenetV1/Conv2d_13_pointwise/BatchNorm/batchnorm/mul_1: 3ef6e8f2
FeatureExtractor/MobilenetV1/MobilenetV1/Conv2d_13_pointwise/BatchNorm/batchnorm/add_1: 3eefb3a0
FeatureExtractor/MobilenetV1/MobilenetV1/Conv2d_13_pointwise/Relu6: 3d418306
BoxPredictor_1/BoxEncodingPredictor/Conv2D: 3d819498
BoxPredictor_1/BoxEncodingPredictor/BiasAdd: 3d53a459
FeatureExtractor/MobilenetV1/Conv2d_13_pointwise_1_Conv2d_2_1x1_256/BatchNorm/batchnorm/mul_1: 3df00812
FeatureExtractor/MobilenetV1/Conv2d_13_pointwise_1_Conv2d_2_1x1_256/BatchNorm/batchnorm/add_1: 3df46e77
FeatureExtractor/MobilenetV1/Conv2d_13_pointwise_1_Conv2d_2_1x1_256/Relu6: 3d418306
FeatureExtractor/MobilenetV1/Conv2d_13_pointwise_2_Conv2d_2_3x3_s2_512/BatchNorm/batchnorm/mul_1: 3e200ccc
FeatureExtractor/MobilenetV1/Conv2d_13_pointwise_2_Conv2d_2_3x3_s2_512/BatchNorm/batchnorm/add_1: 3e15d83e
FeatureExtractor/MobilenetV1/Conv2d_13_pointwise_2_Conv2d_2_3x3_s2_512/Relu6: 3d418306
BoxPredictor_2/BoxEncodingPredictor/Conv2D: 3d11e7ba
BoxPredictor_2/BoxEncodingPredictor/BiasAdd: 3d164eaf
FeatureExtractor/MobilenetV1/Conv2d_13_pointwise_1_Conv2d_3_1x1_128/BatchNorm/batchnorm/mul_1: 3ddef3a4
FeatureExtractor/MobilenetV1/Conv2d_13_pointwise_1_Conv2d_3_1x1_128/BatchNorm/batchnorm/add_1: 3dd8a429
FeatureExtractor/MobilenetV1/Conv2d_13_pointwise_1_Conv2d_3_1x1_128/Relu6: 3d418306
FeatureExtractor/MobilenetV1/Conv2d_13_pointwise_2_Conv2d_3_3x3_s2_256/BatchNorm/batchnorm/mul_1: 3e2f77c9
FeatureExtractor/MobilenetV1/Conv2d_13_pointwise_2_Conv2d_3_3x3_s2_256/BatchNorm/batchnorm/add_1: 3e2ef4f5
FeatureExtractor/MobilenetV1/Conv2d_13_pointwise_2_Conv2d_3_3x3_s2_256/Relu6: 3d418306
BoxPredictor_3/BoxEncodingPredictor/Conv2D: 3cf584d7
BoxPredictor_3/BoxEncodingPredictor/BiasAdd: 3ce5ad5a
FeatureExtractor/MobilenetV1/Conv2d_13_pointwise_1_Conv2d_4_1x1_128/BatchNorm/batchnorm/mul_1: 3d85f42f
FeatureExtractor/MobilenetV1/Conv2d_13_pointwise_1_Conv2d_4_1x1_128/BatchNorm/batchnorm/add_1: 3d794b91
FeatureExtractor/MobilenetV1/Conv2d_13_pointwise_1_Conv2d_4_1x1_128/Relu6: 3d418306
FeatureExtractor/MobilenetV1/Conv2d_13_pointwise_2_Conv2d_4_3x3_s2_256/BatchNorm/batchnorm/mul_1: 3dea686b
FeatureExtractor/MobilenetV1/Conv2d_13_pointwise_2_Conv2d_4_3x3_s2_256/BatchNorm/batchnorm/add_1: 3de7d3fb
FeatureExtractor/MobilenetV1/Conv2d_13_pointwise_2_Conv2d_4_3x3_s2_256/Relu6: 3d418306
BoxPredictor_4/BoxEncodingPredictor/Conv2D: 3cb020be
BoxPredictor_4/BoxEncodingPredictor/BiasAdd: 3cd4b8c9
FeatureExtractor/MobilenetV1/Conv2d_13_pointwise_1_Conv2d_5_1x1_64/BatchNorm/batchnorm/mul_1: 3d9eda5f
FeatureExtractor/MobilenetV1/Conv2d_13_pointwise_1_Conv2d_5_1x1_64/BatchNorm/batchnorm/add_1: 3dc0ecc9
FeatureExtractor/MobilenetV1/Conv2d_13_pointwise_1_Conv2d_5_1x1_64/Relu6: 3d418306
FeatureExtractor/MobilenetV1/Conv2d_13_pointwise_2_Conv2d_5_3x3_s2_128/BatchNorm/batchnorm/mul_1: 3ddf6792
FeatureExtractor/MobilenetV1/Conv2d_13_pointwise_2_Conv2d_5_3x3_s2_128/BatchNorm/batchnorm/add_1: 3dec65f1
FeatureExtractor/MobilenetV1/Conv2d_13_pointwise_2_Conv2d_5_3x3_s2_128/Relu6: 3d418306
BoxPredictor_5/BoxEncodingPredictor/Conv2D: 3d0063dd
BoxPredictor_5/BoxEncodingPredictor/BiasAdd: 3ceb556d
MultipleGridAnchorGenerator: 3a4fb8dc
MultipleGridAnchorGenerator_1: 3a4fb8dc
MultipleGridAnchorGenerator_2: 3a4fb8dc
MultipleGridAnchorGenerator_3: 3a4fb8dc
MultipleGridAnchorGenerator_4: 3a4fb8dc
MultipleGridAnchorGenerator_5: 3a4fb8dc
concat_priorbox: 3a4fb8dc
BoxPredictor_0/ClassPredictor/Conv2D: 3e58f7f0
BoxPredictor_0/ClassPredictor/BiasAdd: 3e6e8591
BoxPredictor_1/ClassPredictor/Conv2D: 3e1a8c39
BoxPredictor_1/ClassPredictor/BiasAdd: 3e2caeae
BoxPredictor_2/ClassPredictor/Conv2D: 3e3b7380
BoxPredictor_2/ClassPredictor/BiasAdd: 3e4582cb
BoxPredictor_3/ClassPredictor/Conv2D: 3e1a9097
BoxPredictor_3/ClassPredictor/BiasAdd: 3e1e7236
BoxPredictor_4/ClassPredictor/Conv2D: 3e00f3ab
BoxPredictor_4/ClassPredictor/BiasAdd: 3e01f51e
BoxPredictor_5/ClassPredictor/Conv2D: 3e193745
BoxPredictor_5/ClassPredictor/BiasAdd: 3e1e92e6
Postprocessor_HL_1804289383: 3f7e0c18
Postprocessor: 3f7e0c18
