TRT-6001-EntropyCalibration2
input_tensor_0: 3f810204
resnet_model/conv2d/Conv2D_0: 40d02b32
resnet_model/batch_normalization/FusedBatchNorm_0: 3dfe5805
resnet_model/Relu_0: 3dfe17b6
resnet_model/max_pooling2d/MaxPool_0: 3dfe17b6
Conv__128_0: 3dacf872
resnet_model/Relu_1_0: 3dbb6bb4
Conv__129_0: 3da57085
resnet_model/Relu_2_0: 3d9a959e
Conv__130_0: 3d8ce287
Conv__123_0: 3e00476c
resnet_model/add_0: 3ddabce0
resnet_model/Relu_3_0: 3da631f6
Conv__131_0: 3dcb9d4e
resnet_model/Relu_4_0: 3da9e0fb
Conv__132_0: 3dc8ad85
resnet_model/Relu_5_0: 3dad7c98
Conv__133_0: 3d814d33
resnet_model/add_1_0: 3dbace69
resnet_model/Relu_6_0: 3dba3adc
Conv__138_0: 3d9b7b46
resnet_model/Relu_7_0: 3d89c506
Conv__139_0: 3d9c67bc
resnet_model/Relu_8_0: 3d8849e0
Conv__140_0: 3d63d792
resnet_model/add_2_0: 3da518d1
resnet_model/Relu_9_0: 3d9cf7c9
Conv__145_0: 3dcbb28b
resnet_model/Relu_10_0: 3da2e983
Conv__146_0: 3db8cfe0
resnet_model/Relu_11_0: 3db85669
Conv__147_0: 3dd43950
Conv__152_0: 3dd0b4fd
resnet_model/add_3_0: 3e027067
resnet_model/Relu_12_0: 3e027067
Conv__153_0: 3d6dbbf2
resnet_model/Relu_13_0: 3d6b47fb
Conv__154_0: 3d8e34c6
resnet_model/Relu_14_0: 3d81b015
Conv__155_0: 3da9b7eb
resnet_model/add_4_0: 3de3c067
resnet_model/Relu_15_0: 3deda3f0
Conv__160_0: 3d854171
resnet_model/Relu_16_0: 3d88dd21
Conv__161_0: 3dae6ef2
resnet_model/Relu_17_0: 3d92d78a
Conv__162_0: 3d89981b
resnet_model/add_5_0: 3dcc6777
resnet_model/Relu_18_0: 3df4955d
Conv__167_0: 3d8f122a
resnet_model/Relu_19_0: 3d8f5bfe
Conv__168_0: 3db283a8
resnet_model/Relu_20_0: 3d95be5c
Conv__169_0: 3d8afe84
resnet_model/add_6_0: 3dd4cd03
resnet_model/Relu_21_0: 3dda7ca5
Conv__174_0: 3db035d3
resnet_model/Relu_22_0: 3db0ee0b
Conv__175_0: 3db0d765
resnet_model/Relu_23_0: 3d9c343c
Conv__176_0: 3dbe4b91
Conv__181_0: 3da8412b
resnet_model/add_7_0: 3e0416aa
resnet_model/Relu_24_0: 3e10392a
Conv__182_0: 3d863c7a
resnet_model/Relu_25_0: 3da7d293
Conv__183_0: 3d9a5744
resnet_model/Relu_26_0: 3d66afcd
Conv__184_0: 3d989952
resnet_model/add_8_0: 3dd866aa
resnet_model/Relu_27_0: 3def12b0
Conv__189_0: 3d7fce92
resnet_model/Relu_28_0: 3d7f4420
Conv__190_0: 3d9edd87
resnet_model/Relu_29_0: 3d9889cb
Conv__191_0: 3d71712d
resnet_model/add_9_0: 3dd6fbb4
resnet_model/Relu_30_0: 3ddb8de6
Conv__196_0: 3d6ae782
resnet_model/Relu_31_0: 3d66f4d4
Conv__197_0: 3d789465
resnet_model/Relu_32_0: 3d68b7d2
Conv__198_0: 3d91e18d
resnet_model/add_10_0: 3ddd2e35
resnet_model/Relu_33_0: 3ddd2e35
Conv__203_0: 3d7e19e6
resnet_model/Relu_34_0: 3d758a12
Conv__204_0: 3d766675
resnet_model/Relu_35_0: 3d5bac0c
Conv__205_0: 3da5ebce
resnet_model/add_11_0: 3ddca0e3
resnet_model/Relu_36_0: 3ddca0e3
Conv__210_0: 3d817c33
resnet_model/Relu_37_0: 3d7232a1
Conv__211_0: 3d87c80a
resnet_model/Relu_38_0: 3d87c80a
Conv__212_0: 3da56115
resnet_model/add_12_0: 3dd86205
resnet_model/Relu_39_0: 3dd86205
Conv__217_0: 3dfd2623
Conv__222_0: 3d968a8d
resnet_model/Relu_40_0: 3d98e928
Conv__223_0: 3d94cfb5
resnet_model/Relu_41_0: 3d896cb0
Conv__224_0: 3e1b21a8
resnet_model/add_13_0: 3e626c0d
resnet_model/Relu_42_0: 3e846c30
Conv__225_0: 3d8eb8a6
resnet_model/Relu_43_0: 3d6bc0c5
Conv__226_0: 3d93fdd8
resnet_model/Relu_44_0: 3d6c2d74
Conv__227_0: 3dcd0016
resnet_model/add_14_0: 3e4e0ff1
resnet_model/Relu_45_0: 3e6cc228
Conv__232_0: 3dad2073
resnet_model/Relu_46_0: 3d9fcc39
Conv__233_0: 3db50529
resnet_model/Relu_47_0: 3d94cd43
Conv__234_0: 3e1c827e
resnet_model/add_15_0: 3e89964f
resnet_model/Relu_48_0: 3eb45448
squeeze_replaced_output: 3eb45448
fc_replaced_output: 3e6d7630
topk_layer_output_value: 3e9c123d
topk_layer_output_index: 410576ee
