TRT-6001-EntropyCalibration2
input: 3caa54e9
(Unnamed Layer* 0) [Convolution]_output: 3dd5be9b
(Unnamed Layer* 1) [Scale]_output: 3c863593
(Unnamed Layer* 2) [Activation]_output: 3c863593
(Unnamed Layer* 3) [Pooling]_output: 3c863593
(Unnamed Layer* 4) [Convolution]_output: 3d18aae2
(Unnamed Layer* 5) [Scale]_output: 3c93c637
(Unnamed Layer* 6) [Activation]_output: 3c210b88
(Unnamed Layer* 7) [Convolution]_output: 3c67dc60
(Unnamed Layer* 8) [Scale]_output: 3c8505a6
(Unnamed Layer* 9) [ElementWise]_output: 3caa10a7
(Unnamed Layer* 10) [Activation]_output: 3caa10a7
(Unnamed Layer* 11) [Convolution]_output: 3d0f4e37
(Unnamed Layer* 12) [Scale]_output: 3c86c7c2
(Unnamed Layer* 13) [Activation]_output: 3c20f295
(Unnamed Layer* 14) [Convolution]_output: 3b973841
(Unnamed Layer* 15) [Scale]_output: 3c884608
(Unnamed Layer* 16) [ElementWise]_output: 3cc32e2a
(Unnamed Layer* 17) [Activation]_output: 3cc32e2a
(Unnamed Layer* 18) [Convolution]_output: 3ce0f615
(Unnamed Layer* 19) [Scale]_output: 3c598e94
(Unnamed Layer* 20) [Activation]_output: 3c2889f2
(Unnamed Layer* 21) [Convolution]_output: 3b9cdbdd
(Unnamed Layer* 22) [Scale]_output: 3c82265d
(Unnamed Layer* 23) [ElementWise]_output: 3ce8818a
(Unnamed Layer* 24) [Activation]_output: 3ce8818a
(Unnamed Layer* 25) [Convolution]_output: 3cf6c051
(Unnamed Layer* 26) [Scale]_output: 3c55f750
(Unnamed Layer* 27) [Activation]_output: 3c31f056
(Unnamed Layer* 28) [Convolution]_output: 3c00e26c
(Unnamed Layer* 29) [Scale]_output: 3c814a7c
(Unnamed Layer* 30) [Convolution]_output: 3c0dd600
(Unnamed Layer* 31) [Scale]_output: 3be68944
(Unnamed Layer* 32) [ElementWise]_output: 3c973148
(Unnamed Layer* 33) [Activation]_output: 3c9f60e4
(Unnamed Layer* 34) [Convolution]_output: 3c80c58d
(Unnamed Layer* 35) [Scale]_output: 3c497edd
(Unnamed Layer* 36) [Activation]_output: 3c31b2b6
(Unnamed Layer* 37) [Convolution]_output: 3c0bc68b
(Unnamed Layer* 38) [Scale]_output: 3c7c33fa
(Unnamed Layer* 39) [ElementWise]_output: 3c9749f6
(Unnamed Layer* 40) [Activation]_output: 3ca801fa
(Unnamed Layer* 41) [Convolution]_output: 3c793e3b
(Unnamed Layer* 42) [Scale]_output: 3c5610cc
(Unnamed Layer* 43) [Activation]_output: 3c3e4e87
(Unnamed Layer* 44) [Convolution]_output: 3bbc2067
(Unnamed Layer* 45) [Scale]_output: 3c548018
(Unnamed Layer* 46) [ElementWise]_output: 3cb424e0
(Unnamed Layer* 47) [Activation]_output: 3cb424e0
(Unnamed Layer* 48) [Convolution]_output: 3c8eb33d
(Unnamed Layer* 49) [Scale]_output: 3c696ee8
(Unnamed Layer* 50) [Activation]_output: 3c3aefe8
(Unnamed Layer* 51) [Convolution]_output: 3b97d186
(Unnamed Layer* 52) [Scale]_output: 3c6f25e8
(Unnamed Layer* 53) [ElementWise]_output: 3cb662a9
(Unnamed Layer* 54) [Activation]_output: 3cc42a2e
(Unnamed Layer* 55) [Convolution]_output: 3cc222c3
(Unnamed Layer* 56) [Scale]_output: 3c59b62c
(Unnamed Layer* 57) [Activation]_output: 3c502967
(Unnamed Layer* 58) [Convolution]_output: 3c09efbe
(Unnamed Layer* 59) [Scale]_output: 3c6a69e1
(Unnamed Layer* 60) [Convolution]_output: 3bc0f629
(Unnamed Layer* 61) [Scale]_output: 3c139c77
(Unnamed Layer* 62) [ElementWise]_output: 3c7bd821
(Unnamed Layer* 63) [Activation]_output: 3c75615e
(Unnamed Layer* 64) [Convolution]_output: 3c50dd6b
(Unnamed Layer* 65) [Scale]_output: 3c848023
(Unnamed Layer* 66) [Activation]_output: 3c8cfe9a
(Unnamed Layer* 67) [Convolution]_output: 3c344be7
(Unnamed Layer* 68) [Scale]_output: 3c6a5a0b
(Unnamed Layer* 69) [ElementWise]_output: 3c9652fb
(Unnamed Layer* 70) [Activation]_output: 3c958d86
(Unnamed Layer* 71) [Convolution]_output: 3c679a71
(Unnamed Layer* 72) [Scale]_output: 3c7e14bd
(Unnamed Layer* 73) [Activation]_output: 3c76638d
(Unnamed Layer* 74) [Convolution]_output: 3c153150
(Unnamed Layer* 75) [Scale]_output: 3c7c844e
(Unnamed Layer* 76) [ElementWise]_output: 3c8f1fef
(Unnamed Layer* 77) [Activation]_output: 3ca873cc
(Unnamed Layer* 78) [Convolution]_output: 3ca5b2dd
(Unnamed Layer* 79) [Scale]_output: 3cc7b81f
(Unnamed Layer* 80) [Activation]_output: 3c5b40d3
(Unnamed Layer* 81) [Convolution]_output: 3c01f5aa
(Unnamed Layer* 82) [Scale]_output: 3c868c2c
(Unnamed Layer* 83) [ElementWise]_output: 3c9ed133
(Unnamed Layer* 84) [Activation]_output: 3cb61256
(Unnamed Layer* 85) [Convolution]_output: 3cb7f636
(Unnamed Layer* 86) [Scale]_output: 3cd71559
(Unnamed Layer* 87) [Activation]_output: 3c4879d3
(Unnamed Layer* 88) [Convolution]_output: 3bb63fbd
(Unnamed Layer* 89) [Scale]_output: 3cab24f8
(Unnamed Layer* 90) [ElementWise]_output: 3d129c77
(Unnamed Layer* 91) [Activation]_output: 3d1d990e
(Unnamed Layer* 92) [Convolution]_output: 3d66ece4
(Unnamed Layer* 93) [Scale]_output: 3c5f6820
(Unnamed Layer* 94) [Activation]_output: 3c28924b
(Unnamed Layer* 95) [Convolution]_output: 3c173fe3
(Unnamed Layer* 96) [Scale]_output: 3d01c5dd
(Unnamed Layer* 97) [ElementWise]_output: 3d6fdf83
(Unnamed Layer* 98) [Activation]_output: 3d7b281b
(Unnamed Layer* 99) [Convolution]_output: 3d14e35c
(Unnamed Layer* 100) [Activation]_output: 3d19ac65
(Unnamed Layer* 101) [Convolution]_output: 3d41c6ff
(Unnamed Layer* 102) [Activation]_output: 3d41c6ff
(Unnamed Layer* 103) [Convolution]_output: 3d193c97
(Unnamed Layer* 104) [Activation]_output: 3d1a825d
(Unnamed Layer* 105) [Convolution]_output: 3d425b0d
(Unnamed Layer* 106) [Activation]_output: 3d4bb68b
(Unnamed Layer* 107) [Convolution]_output: 3d66b28c
(Unnamed Layer* 108) [Activation]_output: 3d6e87ee
(Unnamed Layer* 109) [Convolution]_output: 3d8e30b0
(Unnamed Layer* 110) [Activation]_output: 3d94b16b
(Unnamed Layer* 111) [Convolution]_output: 3d733037
(Unnamed Layer* 112) [Activation]_output: 3d7590ea
(Unnamed Layer* 113) [Convolution]_output: 3d847762
(Unnamed Layer* 114) [Activation]_output: 3dbd34ba
(Unnamed Layer* 115) [Convolution]_output: 3d8acb94
(Unnamed Layer* 116) [Activation]_output: 3d8acb94
(Unnamed Layer* 117) [Convolution]_output: 3d563c8e
(Unnamed Layer* 118) [Activation]_output: 3d8e5823
(Unnamed Layer* 119) [Convolution]_output: 3de659d7
(Unnamed Layer* 120) [Convolution]_output: 3d02f72d
(Unnamed Layer* 121) [Convolution]_output: 3cfa5b7b
(Unnamed Layer* 122) [Convolution]_output: 3cffbe64
(Unnamed Layer* 123) [Convolution]_output: 3d06c8a3
(Unnamed Layer* 124) [Convolution]_output: 3ceaab79
(Unnamed Layer* 125) [Convolution]_output: 3dd45bf5
(Unnamed Layer* 126) [Convolution]_output: 3dee3c45
(Unnamed Layer* 127) [Convolution]_output: 3e02c94e
(Unnamed Layer* 128) [Convolution]_output: 3dffbbed
(Unnamed Layer* 129) [Convolution]_output: 3e05d895
(Unnamed Layer* 130) [Convolution]_output: 3e0d53b9
(Unnamed Layer* 131) [Constant]_output: 3a4fd878
NMS_0: 3ef61020
